module {
  func.func @_clear_forward_proxy(%arg0: tensor<1x3x64x64x!FHE.eint<19>>) -> tensor<1x2x!FHE.esint<25>> {
    %cst = arith.constant dense<"0x53005A00E2016600E6011500C3013B005D00A201560009004D0008003000E8014F000900C8011800CA01F201D10149009601BB01CF01C2010F0096016800A40159001800E1014A00200069001900E2012100E50136006C004A00E001510023002A00AF018301DC01B101670032003E003400FB014F00AE011600C2012F00EA013200FA015000B301B401B40163001E0065009A0187019701A4011C003C007200DB01B1013A00D2014100E3013D00AC01BF011D001400E0013F004D00AD01C8016400D801D6019001B7011A00EF01AE010200B401A101C0019E01B9017000150023009801B601DB0112009D01D001BD010000D601F801B401B301BF01DA01A8015E00EA0160002300A1014E00E101CC019B0189012400EB012E00A8015700B201F3011E003F0060006B00AD012300D801FB01AC016600AE01450032002F00CB016D001E000F00A8013300FF01D80168001300BA01C30105004300E301C001D301B00126005C009801230046001D00E201480047003600FA01EA010B00EA01DC0147006000F401F3011200070029002D00A701DB0167003300FF01BB01BC019001D2011B0043002D009601D00102007F00"> : tensor<8x3x3x3xi9>
    %0 = "FHELinalg.to_signed"(%arg0) : (tensor<1x3x64x64x!FHE.eint<19>>) -> tensor<1x3x64x64x!FHE.esint<19>>
    %1 = "FHELinalg.conv2d"(%0, %cst) {dilations = dense<1> : tensor<2xi64>, group = 1 : i64, padding = dense<0> : tensor<4xi64>, strides = dense<1> : tensor<2xi64>} : (tensor<1x3x64x64x!FHE.esint<19>>, tensor<8x3x3x3xi9>) -> tensor<1x8x62x62x!FHE.esint<19>>
    %2 = "FHELinalg.round"(%1) : (tensor<1x8x62x62x!FHE.esint<19>>) -> tensor<1x8x62x62x!FHE.esint<4>>
    %cst_0 = arith.constant 